const unsigned char trained_tflite[] = {
  0x1c, 0x00, 0x00, 0x00, 0x54, 0x46, 0x4c, 0x33, 0x00, 0x00, 0x12, 0x00,
  0x1c, 0x00, 0x04, 0x00, 0x08, 0x00, 0x0c, 0x00, 0x10, 0x00, 0x14, 0x00,
  0x00, 0x00, 0x18, 0x00, 0x12, 0x00, 0x00, 0x00, 0x03, 0x00, 0x00, 0x00,
  0x14, 0x00, 0x00, 0x00, 0x24, 0x00, 0x00, 0x00, 0xe0, 0x00, 0x00, 0x00,
  0x24, 0x00, 0x00, 0x00, 0x88, 0x00, 0x00, 0x00, 0x04, 0x00, 0x00, 0x00,
  0xf0, 0x06, 0x00, 0x00, 0x5c, 0x06, 0x00, 0x00, 0x48, 0x05, 0x00, 0x00,
  0xdc, 0x01, 0x00, 0x00, 0x01, 0x00, 0x00, 0x00, 0xe0, 0x00, 0x00, 0x00,
  0x19, 0x00, 0x00, 0x00, 0x6c, 0x10, 0x00, 0x00, 0x68, 0x10, 0x00, 0x00,
  0x84, 0x0f, 0x00, 0x00, 0xfc, 0x0e, 0x00, 0x00, 0x90, 0x0e, 0x00, 0x00,
  0x24, 0x0e, 0x00, 0x00, 0xc0, 0x0d, 0x00, 0x00, 0x58, 0x0d, 0x00, 0x00,
  0xf4, 0x0c, 0x00, 0x00, 0x88, 0x0c, 0x00, 0x00, 0x2c, 0x0b, 0x00, 0x00,
  0xd0, 0x08, 0x00, 0x00, 0xfc, 0x06, 0x00, 0x00, 0x38, 0x10, 0x00, 0x00,
  0x34, 0x10, 0x00, 0x00, 0x30, 0x10, 0x00, 0x00, 0x2c, 0x10, 0x00, 0x00,
  0x28, 0x10, 0x00, 0x00, 0x24, 0x10, 0x00, 0x00, 0x20, 0x10, 0x00, 0x00,
  0x1c, 0x10, 0x00, 0x00, 0x18, 0x10, 0x00, 0x00, 0x14, 0x10, 0x00, 0x00,
  0x10, 0x10, 0x00, 0x00, 0x38, 0x00, 0x00, 0x00, 0x01, 0x00, 0x00, 0x00,
  0x0c, 0x00, 0x00, 0x00, 0x08, 0x00, 0x0c, 0x00, 0x04, 0x00, 0x08, 0x00,
  0x08, 0x00, 0x00, 0x00, 0x08, 0x00, 0x00, 0x00, 0x18, 0x00, 0x00, 0x00,
  0x13, 0x00, 0x00, 0x00, 0x6d, 0x69, 0x6e, 0x5f, 0x72, 0x75, 0x6e, 0x74,
  0x69, 0x6d, 0x65, 0x5f, 0x76, 0x65, 0x72, 0x73, 0x69, 0x6f, 0x6e, 0x00,
  0x12, 0xf1, 0xff, 0xff, 0x04, 0x00, 0x00, 0x00, 0x10, 0x00, 0x00, 0x00,
  0x31, 0x2e, 0x35, 0x2e, 0x30, 0x00, 0x00, 0x00, 0x00, 0x00, 0x00, 0x00,
  0x00, 0x00, 0x00, 0x00, 0x0f, 0x00, 0x00, 0x00, 0x4d, 0x4c, 0x49, 0x52,
  0x20, 0x43, 0x6f, 0x6e, 0x76, 0x65, 0x72, 0x74, 0x65, 0x64, 0x2e, 0x00,
  0x00, 0x00, 0x0e, 0x00, 0x18, 0x00, 0x04, 0x00, 0x08, 0x00, 0x0c, 0x00,
  0x10, 0x00, 0x14, 0x00, 0x0e, 0x00, 0x00, 0x00, 0x14, 0x00, 0x00, 0x00,
  0x70, 0x00, 0x00, 0x00, 0x74, 0x00, 0x00, 0x00, 0x78, 0x00, 0x00, 0x00,
  0xa4, 0x00, 0x00, 0x00, 0x17, 0x00, 0x00, 0x00, 0x44, 0x0f, 0x00, 0x00,
  0xe0, 0x0e, 0x00, 0x00, 0x38, 0x0e, 0x00, 0x00, 0xc4, 0x0d, 0x00, 0x00,
  0x4c, 0x0d, 0x00, 0x00, 0xe4, 0x0c, 0x00, 0x00, 0x80, 0x0c, 0x00, 0x00,
  0x18, 0x0c, 0x00, 0x00, 0xb0, 0x0b, 0x00, 0x00, 0x48, 0x0b, 0x00, 0x00,
  0xec, 0x09, 0x00, 0x00, 0x98, 0x07, 0x00, 0x00, 0xbc, 0x05, 0x00, 0x00,
  0x28, 0x05, 0x00, 0x00, 0x8c, 0x04, 0x00, 0x00, 0x0c, 0x04, 0x00, 0x00,
  0x58, 0x03, 0x00, 0x00, 0xe4, 0x02, 0x00, 0x00, 0x60, 0x02, 0x00, 0x00,
  0xdc, 0x01, 0x00, 0x00, 0x60, 0x01, 0x00, 0x00, 0xf8, 0x00, 0x00, 0x00,
  0x8c, 0x00, 0x00, 0x00, 0x01, 0x00, 0x00, 0x00, 0x00, 0x00, 0x00, 0x00,
  0x01, 0x00, 0x00, 0x00, 0x16, 0x00, 0x00, 0x00, 0x0b, 0x00, 0x00, 0x00,
  0x44, 0x05, 0x00, 0x00, 0xa8, 0x04, 0x00, 0x00, 0x2c, 0x04, 0x00, 0x00,
  0x7c, 0x03, 0x00, 0x00, 0xf8, 0x02, 0x00, 0x00, 0x70, 0x02, 0x00, 0x00,
  0x00, 0x02, 0x00, 0x00, 0x68, 0x01, 0x00, 0x00, 0x00, 0x01, 0x00, 0x00,
  0x84, 0x00, 0x00, 0x00, 0x10, 0x00, 0x00, 0x00, 0x04, 0x00, 0x00, 0x00,
  0x6d, 0x61, 0x69, 0x6e, 0x00, 0x00, 0x00, 0x00, 0x9a, 0xfb, 0xff, 0xff,
  0x00, 0x00, 0x00, 0x09, 0x03, 0x00, 0x00, 0x00, 0x1c, 0x00, 0x00, 0x00,
  0x10, 0x00, 0x00, 0x00, 0x04, 0x00, 0x00, 0x00, 0x2e, 0xf2, 0xff, 0xff,
  0x00, 0x00, 0x80, 0x3f, 0x01, 0x00, 0x00, 0x00, 0x16, 0x00, 0x00, 0x00,
  0x01, 0x00, 0x00, 0x00, 0x15, 0x00, 0x00, 0x00, 0x02, 0xfb, 0xff, 0xff,
  0x00, 0x00, 0x00, 0x19, 0x01, 0x00, 0x00, 0x00, 0xae, 0xf1, 0xff, 0xff,
  0x10, 0x00, 0x00, 0x00, 0x17, 0x00, 0x00, 0x00, 0x14, 0x00, 0x00, 0x00,
  0x20, 0x00, 0x00, 0x00, 0x02, 0x00, 0x00, 0x00, 0x01, 0x00, 0x00, 0x00,
  0x03, 0x00, 0x00, 0x00, 0x08, 0x00, 0x00, 0x00, 0x49, 0x64, 0x65, 0x6e,
  0x74, 0x69, 0x74, 0x79, 0x00, 0x00, 0x00, 0x00, 0xa0, 0xf1, 0xff, 0xff,
  0x0a, 0xfc, 0xff, 0xff, 0x00, 0x00, 0x00, 0x08, 0x01, 0x00, 0x00, 0x00,
  0x18, 0x00, 0x00, 0x00, 0x0c, 0x00, 0x00, 0x00, 0x04, 0x00, 0x00, 0x00,
  0xbc, 0xf1, 0xff, 0xff, 0x01, 0x00, 0x00, 0x00, 0x15, 0x00, 0x00, 0x00,
  0x03, 0x00, 0x00, 0x00, 0x14, 0x00, 0x00, 0x00, 0x0b, 0x00, 0x00, 0x00,
  0x04, 0x00, 0x00, 0x00, 0x16, 0xf2, 0xff, 0xff, 0x10, 0x00, 0x00, 0x00,
  0x16, 0x00, 0x00, 0x00, 0x14, 0x00, 0x00, 0x00, 0x30, 0x00, 0x00, 0x00,
  0x02, 0x00, 0x00, 0x00, 0x01, 0x00, 0x00, 0x00, 0x03, 0x00, 0x00, 0x00,
  0x19, 0x00, 0x00, 0x00, 0x73, 0x65, 0x71, 0x75, 0x65, 0x6e, 0x74, 0x69,
  0x61, 0x6c, 0x2f, 0x79, 0x5f, 0x70, 0x72, 0x65, 0x64, 0x2f, 0x42, 0x69,
  0x61, 0x73, 0x41, 0x64, 0x64, 0x00, 0x00, 0x00, 0x18, 0xf2, 0xff, 0xff,
  0xe6, 0xfb, 0xff, 0xff, 0x10, 0x00, 0x00, 0x00, 0x04, 0x00, 0x00, 0x00,
  0x01, 0x00, 0x00, 0x00, 0x14, 0x00, 0x00, 0x00, 0x02, 0x00, 0x00, 0x00,
  0x13, 0x00, 0x00, 0x00, 0x03, 0x00, 0x00, 0x00, 0x7a, 0xf2, 0xff, 0xff,
  0x10, 0x00, 0x00, 0x00, 0x15, 0x00, 0x00, 0x00, 0x14, 0x00, 0x00, 0x00,
  0x30, 0x00, 0x00, 0x00, 0x02, 0x00, 0x00, 0x00, 0x01, 0x00, 0x00, 0x00,
  0x20, 0x00, 0x00, 0x00, 0x1a, 0x00, 0x00, 0x00, 0x73, 0x65, 0x71, 0x75,
  0x65, 0x6e, 0x74, 0x69, 0x61, 0x6c, 0x2f, 0x66, 0x6c, 0x61, 0x74, 0x74,
  0x65, 0x6e, 0x2f, 0x52, 0x65, 0x73, 0x68, 0x61, 0x70, 0x65, 0x00, 0x00,
  0x7c, 0xf2, 0xff, 0xff, 0xe6, 0xfc, 0xff, 0xff, 0x00, 0x00, 0x00, 0x0b,
  0x02, 0x00, 0x00, 0x00, 0x1c, 0x00, 0x00, 0x00, 0x10, 0x00, 0x00, 0x00,
  0x04, 0x00, 0x00, 0x00, 0xfa, 0xfd, 0xff, 0xff, 0x00, 0x00, 0x00, 0x01,
  0x01, 0x00, 0x00, 0x00, 0x13, 0x00, 0x00, 0x00, 0x02, 0x00, 0x00, 0x00,
  0x12, 0x00, 0x00, 0x00, 0x02, 0x00, 0x00, 0x00, 0xf2, 0xf2, 0xff, 0xff,
  0x10, 0x00, 0x00, 0x00, 0x14, 0x00, 0x00, 0x00, 0x18, 0x00, 0x00, 0x00,
  0x4c, 0x00, 0x00, 0x00, 0x03, 0x00, 0x00, 0x00, 0x01, 0x00, 0x00, 0x00,
  0x04, 0x00, 0x00, 0x00, 0x08, 0x00, 0x00, 0x00, 0x32, 0x00, 0x00, 0x00,
  0x73, 0x65, 0x71, 0x75, 0x65, 0x6e, 0x74, 0x69, 0x61, 0x6c, 0x2f, 0x64,
  0x65, 0x6e, 0x73, 0x65, 0x5f, 0x31, 0x2f, 0x52, 0x65, 0x6c, 0x75, 0x3b,
  0x73, 0x65, 0x71, 0x75, 0x65, 0x6e, 0x74, 0x69, 0x61, 0x6c, 0x2f, 0x64,
  0x65, 0x6e, 0x73, 0x65, 0x5f, 0x31, 0x2f, 0x42, 0x69, 0x61, 0x73, 0x41,
  0x64, 0x64, 0x00, 0x00, 0x10, 0xf3, 0xff, 0xff, 0xde, 0xfc, 0xff, 0xff,
  0x10, 0x00, 0x00, 0x00, 0x04, 0x00, 0x00, 0x00, 0x01, 0x00, 0x00, 0x00,
  0x12, 0x00, 0x00, 0x00, 0x02, 0x00, 0x00, 0x00, 0x11, 0x00, 0x00, 0x00,
  0x08, 0x00, 0x00, 0x00, 0x72, 0xf3, 0xff, 0xff, 0x10, 0x00, 0x00, 0x00,
  0x13, 0x00, 0x00, 0x00, 0x18, 0x00, 0x00, 0x00, 0x38, 0x00, 0x00, 0x00,
  0x03, 0x00, 0x00, 0x00, 0x01, 0x00, 0x00, 0x00, 0x04, 0x00, 0x00, 0x00,
  0x08, 0x00, 0x00, 0x00, 0x1c, 0x00, 0x00, 0x00, 0x73, 0x65, 0x71, 0x75,
  0x65, 0x6e, 0x74, 0x69, 0x61, 0x6c, 0x2f, 0x64, 0x65, 0x6e, 0x73, 0x65,
  0x5f, 0x31, 0x2f, 0x54, 0x65, 0x6e, 0x73, 0x6f, 0x72, 0x64, 0x6f, 0x74,
  0x00, 0x00, 0x00, 0x00, 0x7c, 0xf3, 0xff, 0xff, 0xe6, 0xfd, 0xff, 0xff,
  0x00, 0x00, 0x00, 0x08, 0x01, 0x00, 0x00, 0x00, 0x18, 0x00, 0x00, 0x00,
  0x0c, 0x00, 0x00, 0x00, 0x04, 0x00, 0x00, 0x00, 0x98, 0xf3, 0xff, 0xff,
  0x01, 0x00, 0x00, 0x00, 0x11, 0x00, 0x00, 0x00, 0x03, 0x00, 0x00, 0x00,
  0x10, 0x00, 0x00, 0x00, 0x0a, 0x00, 0x00, 0x00, 0xff, 0xff, 0xff, 0xff,
  0xf2, 0xf3, 0xff, 0xff, 0x10, 0x00, 0x00, 0x00, 0x12, 0x00, 0x00, 0x00,
  0x14, 0x00, 0x00, 0x00, 0x3c, 0x00, 0x00, 0x00, 0x02, 0x00, 0x00, 0x00,
  0x04, 0x00, 0x00, 0x00, 0x08, 0x00, 0x00, 0x00, 0x24, 0x00, 0x00, 0x00,
  0x73, 0x65, 0x71, 0x75, 0x65, 0x6e, 0x74, 0x69, 0x61, 0x6c, 0x2f, 0x64,
  0x65, 0x6e, 0x73, 0x65, 0x5f, 0x31, 0x2f, 0x54, 0x65, 0x6e, 0x73, 0x6f,
  0x72, 0x64, 0x6f, 0x74, 0x2f, 0x4d, 0x61, 0x74, 0x4d, 0x75, 0x6c, 0x31,
  0x00, 0x00, 0x00, 0x00, 0x00, 0xf4, 0xff, 0xff, 0xce, 0xfd, 0xff, 0xff,
  0x10, 0x00, 0x00, 0x00, 0x04, 0x00, 0x00, 0x00, 0x01, 0x00, 0x00, 0x00,
  0x10, 0x00, 0x00, 0x00, 0x02, 0x00, 0x00, 0x00, 0x0f, 0x00, 0x00, 0x00,
  0x07, 0x00, 0x00, 0x00, 0x62, 0xf4, 0xff, 0xff, 0x10, 0x00, 0x00, 0x00,
  0x11, 0x00, 0x00, 0x00, 0x14, 0x00, 0x00, 0x00, 0x3c, 0x00, 0x00, 0x00,
  0x02, 0x00, 0x00, 0x00, 0x04, 0x00, 0x00, 0x00, 0x10, 0x00, 0x00, 0x00,
  0x24, 0x00, 0x00, 0x00, 0x73, 0x65, 0x71, 0x75, 0x65, 0x6e, 0x74, 0x69,
  0x61, 0x6c, 0x2f, 0x64, 0x65, 0x6e, 0x73, 0x65, 0x5f, 0x31, 0x2f, 0x54,
  0x65, 0x6e, 0x73, 0x6f, 0x72, 0x64, 0x6f, 0x74, 0x2f, 0x52, 0x65, 0x73,
  0x68, 0x61, 0x70, 0x65, 0x00, 0x00, 0x00, 0x00, 0xb8, 0xf4, 0xff, 0xff,
  0x00, 0x00, 0x0e, 0x00, 0x1a, 0x00, 0x08, 0x00, 0x0c, 0x00, 0x10, 0x00,
  0x07, 0x00, 0x14, 0x00, 0x0e, 0x00, 0x00, 0x00, 0x00, 0x00, 0x00, 0x0b,
  0x02, 0x00, 0x00, 0x00, 0x24, 0x00, 0x00, 0x00, 0x18, 0x00, 0x00, 0x00,
  0x0c, 0x00, 0x00, 0x00, 0x00, 0x00, 0x06, 0x00, 0x08, 0x00, 0x07, 0x00,
  0x06, 0x00, 0x00, 0x00, 0x00, 0x00, 0x00, 0x01, 0x01, 0x00, 0x00, 0x00,
  0x0f, 0x00, 0x00, 0x00, 0x02, 0x00, 0x00, 0x00, 0x0e, 0x00, 0x00, 0x00,
  0x01, 0x00, 0x00, 0x00, 0x00, 0x00, 0x0a, 0x00, 0x08, 0x00, 0x00, 0x00,
  0x00, 0x00, 0x04, 0x00, 0x0a, 0x00, 0x00, 0x00, 0x01, 0x00, 0x00, 0x00,
  0x12, 0xf5, 0xff, 0xff, 0x10, 0x00, 0x00, 0x00, 0x10, 0x00, 0x00, 0x00,
  0x18, 0x00, 0x00, 0x00, 0x48, 0x00, 0x00, 0x00, 0x03, 0x00, 0x00, 0x00,
  0x01, 0x00, 0x00, 0x00, 0x04, 0x00, 0x00, 0x00, 0x10, 0x00, 0x00, 0x00,
  0x2e, 0x00, 0x00, 0x00, 0x73, 0x65, 0x71, 0x75, 0x65, 0x6e, 0x74, 0x69,
  0x61, 0x6c, 0x2f, 0x64, 0x65, 0x6e, 0x73, 0x65, 0x2f, 0x52, 0x65, 0x6c,
  0x75, 0x3b, 0x73, 0x65, 0x71, 0x75, 0x65, 0x6e, 0x74, 0x69, 0x61, 0x6c,
  0x2f, 0x64, 0x65, 0x6e, 0x73, 0x65, 0x2f, 0x42, 0x69, 0x61, 0x73, 0x41,
  0x64, 0x64, 0x00, 0x00, 0x2c, 0xf5, 0xff, 0xff, 0xfa, 0xfe, 0xff, 0xff,
  0x10, 0x00, 0x00, 0x00, 0x04, 0x00, 0x00, 0x00, 0x01, 0x00, 0x00, 0x00,
  0x0e, 0x00, 0x00, 0x00, 0x02, 0x00, 0x00, 0x00, 0x0d, 0x00, 0x00, 0x00,
  0x06, 0x00, 0x00, 0x00, 0x8e, 0xf5, 0xff, 0xff, 0x10, 0x00, 0x00, 0x00,
  0x0f, 0x00, 0x00, 0x00, 0x18, 0x00, 0x00, 0x00, 0x34, 0x00, 0x00, 0x00,
  0x03, 0x00, 0x00, 0x00, 0x01, 0x00, 0x00, 0x00, 0x04, 0x00, 0x00, 0x00,
  0x10, 0x00, 0x00, 0x00, 0x1a, 0x00, 0x00, 0x00, 0x73, 0x65, 0x71, 0x75,
  0x65, 0x6e, 0x74, 0x69, 0x61, 0x6c, 0x2f, 0x64, 0x65, 0x6e, 0x73, 0x65,
  0x2f, 0x54, 0x65, 0x6e, 0x73, 0x6f, 0x72, 0x64, 0x6f, 0x74, 0x00, 0x00,
  0xdc, 0xf5, 0xff, 0xff, 0x00, 0x00, 0x0e, 0x00, 0x18, 0x00, 0x08, 0x00,
  0x0c, 0x00, 0x10, 0x00, 0x07, 0x00, 0x14, 0x00, 0x0e, 0x00, 0x00, 0x00,
  0x00, 0x00, 0x00, 0x08, 0x01, 0x00, 0x00, 0x00, 0x18, 0x00, 0x00, 0x00,
  0x0c, 0x00, 0x00, 0x00, 0x04, 0x00, 0x00, 0x00, 0xc0, 0xf5, 0xff, 0xff,
  0x01, 0x00, 0x00, 0x00, 0x0d, 0x00, 0x00, 0x00, 0x03, 0x00, 0x00, 0x00,
  0x0c, 0x00, 0x00, 0x00, 0x09, 0x00, 0x00, 0x00, 0xff, 0xff, 0xff, 0xff,
  0x7a, 0xff, 0xff, 0xff, 0x00, 0x00, 0x00, 0x09, 0x01, 0x00, 0x00, 0x00,
  0x26, 0xf6, 0xff, 0xff, 0x10, 0x00, 0x00, 0x00, 0x0e, 0x00, 0x00, 0x00,
  0x14, 0x00, 0x00, 0x00, 0x38, 0x00, 0x00, 0x00, 0x02, 0x00, 0x00, 0x00,
  0x04, 0x00, 0x00, 0x00, 0x10, 0x00, 0x00, 0x00, 0x22, 0x00, 0x00, 0x00,
  0x73, 0x65, 0x71, 0x75, 0x65, 0x6e, 0x74, 0x69, 0x61, 0x6c, 0x2f, 0x64,
  0x65, 0x6e, 0x73, 0x65, 0x2f, 0x54, 0x65, 0x6e, 0x73, 0x6f, 0x72, 0x64,
  0x6f, 0x74, 0x2f, 0x4d, 0x61, 0x74, 0x4d, 0x75, 0x6c, 0x31, 0x00, 0x00,
  0x78, 0xf6, 0xff, 0xff, 0x00, 0x00, 0x0a, 0x00, 0x0c, 0x00, 0x00, 0x00,
  0x04, 0x00, 0x08, 0x00, 0x0a, 0x00, 0x00, 0x00, 0x10, 0x00, 0x00, 0x00,
  0x04, 0x00, 0x00, 0x00, 0x01, 0x00, 0x00, 0x00, 0x0c, 0x00, 0x00, 0x00,
  0x02, 0x00, 0x00, 0x00, 0x00, 0x00, 0x00, 0x00, 0x05, 0x00, 0x00, 0x00,
  0x00, 0x00, 0x0a, 0x00, 0x0c, 0x00, 0x07, 0x00, 0x00, 0x00, 0x08, 0x00,
  0x0a, 0x00, 0x00, 0x00, 0x00, 0x00, 0x00, 0x16, 0x01, 0x00, 0x00, 0x00,
  0xb6, 0xf6, 0xff, 0xff, 0x10, 0x00, 0x00, 0x00, 0x0d, 0x00, 0x00, 0x00,
  0x14, 0x00, 0x00, 0x00, 0x38, 0x00, 0x00, 0x00, 0x02, 0x00, 0x00, 0x00,
  0x04, 0x00, 0x00, 0x00, 0x04, 0x00, 0x00, 0x00, 0x22, 0x00, 0x00, 0x00,
  0x73, 0x65, 0x71, 0x75, 0x65, 0x6e, 0x74, 0x69, 0x61, 0x6c, 0x2f, 0x64,
  0x65, 0x6e, 0x73, 0x65, 0x2f, 0x54, 0x65, 0x6e, 0x73, 0x6f, 0x72, 0x64,
  0x6f, 0x74, 0x2f, 0x52, 0x65, 0x73, 0x68, 0x61, 0x70, 0x65, 0x00, 0x00,
  0xc0, 0xf6, 0xff, 0xff, 0xa6, 0xf7, 0xff, 0xff, 0x04, 0x00, 0x00, 0x00,
  0x80, 0x01, 0x00, 0x00, 0x79, 0xf8, 0xd2, 0xbd, 0x47, 0x7c, 0x3e, 0xbd,
  0x11, 0x5b, 0xbb, 0xbe, 0x71, 0x31, 0xaa, 0x3e, 0xf6, 0x2d, 0x9d, 0x3e,
  0xe0, 0x5d, 0x3c, 0xbc, 0xe8, 0x54, 0xb8, 0x3e, 0x0c, 0x39, 0xfe, 0x3d,
  0x71, 0x63, 0x9e, 0xbe, 0x92, 0xf7, 0x9d, 0xbe, 0xac, 0x9b, 0x95, 0xbd,
  0x72, 0xa7, 0x6f, 0x3e, 0x16, 0xc0, 0x9d, 0x3d, 0xa7, 0x1c, 0xbf, 0x3e,
  0x6e, 0x45, 0x5c, 0x3d, 0x5e, 0x1e, 0x26, 0xbe, 0x59, 0x43, 0x8a, 0xbe,
  0x62, 0x78, 0xa9, 0xbe, 0xf0, 0x2d, 0x97, 0xbe, 0x4f, 0x3e, 0x95, 0xbe,
  0x55, 0xa2, 0x8e, 0xbc, 0x26, 0xd6, 0x06, 0x3e, 0x2b, 0x5c, 0x60, 0xbe,
  0xaf, 0x80, 0xa2, 0x3e, 0x01, 0xec, 0x4c, 0x3d, 0xb9, 0xb5, 0x88, 0xbf,
  0xbe, 0x92, 0x4f, 0x3e, 0xa0, 0xe9, 0x20, 0xbe, 0x88, 0xb3, 0xb1, 0xbe,
  0xf1, 0x6b, 0xcd, 0x3e, 0x6c, 0x7f, 0xb5, 0xbf, 0x64, 0x9b, 0xf8, 0xbd,
  0x71, 0x27, 0x66, 0x3e, 0xc9, 0x7c, 0x01, 0xbe, 0x2d, 0xf9, 0xad, 0x3e,
  0xb2, 0xcd, 0x8c, 0xbe, 0x22, 0x09, 0x96, 0x3d, 0x80, 0x07, 0x05, 0x3b,
  0x01, 0x3a, 0xce, 0xbd, 0x0a, 0x3b, 0x21, 0x3e, 0x5d, 0xab, 0x87, 0x3e,
  0xa1, 0x5a, 0xc0, 0xbd, 0xa9, 0xbe, 0xb9, 0xbe, 0xa4, 0xac, 0xec, 0x3d,
  0x48, 0xcd, 0xcd, 0x3e, 0xd2, 0xb5, 0x11, 0x3e, 0x05, 0x3d, 0x9d, 0xbe,
  0x34, 0xcc, 0xd6, 0x3d, 0x8b, 0x67, 0xb0, 0xbe, 0x15, 0xb8, 0xed, 0x3e,
  0x80, 0xbb, 0xda, 0x3c, 0xdb, 0xe8, 0x8a, 0x3e, 0xd5, 0x53, 0xb3, 0x3e,
  0x92, 0x06, 0x7d, 0x3e, 0xb7, 0x57, 0x0e, 0xbc, 0x3d, 0x68, 0xb4, 0xbe,
  0x78, 0x59, 0x01, 0xbe, 0x16, 0x95, 0xcf, 0x3e, 0x8e, 0x48, 0xb2, 0xbe,
  0x20, 0x22, 0x82, 0x3d, 0x4a, 0x9a, 0x6a, 0x3e, 0x16, 0x9e, 0x96, 0xbe,
  0x48, 0xcb, 0x41, 0xbd, 0x2a, 0x4f, 0xfd, 0x3c, 0x35, 0xd2, 0xca, 0xbe,
  0x81, 0x9e, 0xa7, 0x3c, 0xf0, 0xb3, 0xc7, 0x3c, 0xea, 0xc4, 0x61, 0x3e,
  0xb5, 0x68, 0xb0, 0x3e, 0xfc, 0xbe, 0xc5, 0x3d, 0x44, 0x6a, 0x16, 0xbd,
  0xb0, 0x9d, 0x12, 0xbd, 0xdd, 0x93, 0xa9, 0x3d, 0xaa, 0x55, 0xfa, 0x3b,
  0x08, 0xf3, 0x81, 0x3d, 0x28, 0xeb, 0xc9, 0xbe, 0x7b, 0xc6, 0x96, 0xbe,
  0x25, 0x05, 0xb0, 0xbe, 0xde, 0x38, 0x16, 0x3d, 0xee, 0x12, 0x6e, 0xbe,
  0x39, 0xd0, 0xc2, 0xbe, 0x54, 0x7f, 0xb5, 0x3e, 0xf9, 0xdd, 0xbe, 0x3e,
  0x4c, 0xf5, 0xa3, 0xbd, 0xf9, 0x17, 0x6b, 0x3e, 0x40, 0x88, 0x97, 0xbe,
  0xbc, 0x46, 0xb9, 0xbe, 0xe0, 0xa2, 0x3a, 0x3c, 0x22, 0x94, 0xa5, 0xbe,
  0x4a, 0xba, 0x4d, 0xbd, 0x02, 0xd8, 0x95, 0xbe, 0x85, 0x68, 0x82, 0x3e,
  0x8c, 0xc3, 0x50, 0x3e, 0xe8, 0x84, 0x38, 0x3d, 0xae, 0x94, 0xcb, 0x3e,
  0xc0, 0x6d, 0x2f, 0x3e, 0x8e, 0xf8, 0xff, 0xff, 0x10, 0x00, 0x00, 0x00,
  0x0c, 0x00, 0x00, 0x00, 0x14, 0x00, 0x00, 0x00, 0x30, 0x00, 0x00, 0x00,
  0x02, 0x00, 0x00, 0x00, 0x03, 0x00, 0x00, 0x00, 0x20, 0x00, 0x00, 0x00,
  0x18, 0x00, 0x00, 0x00, 0x73, 0x65, 0x71, 0x75, 0x65, 0x6e, 0x74, 0x69,
  0x61, 0x6c, 0x2f, 0x79, 0x5f, 0x70, 0x72, 0x65, 0x64, 0x2f, 0x4d, 0x61,
  0x74, 0x4d, 0x75, 0x6c, 0x00, 0x00, 0x00, 0x00, 0x90, 0xf8, 0xff, 0xff,
  0x76, 0xf9, 0xff, 0xff, 0x04, 0x00, 0x00, 0x00, 0x00, 0x02, 0x00, 0x00,
  0x14, 0x61, 0x9c, 0xbe, 0xbc, 0x9c, 0xb4, 0xbe, 0xa8, 0x1d, 0x18, 0xbe,
  0x2c, 0xae, 0x84, 0xbe, 0x96, 0x3f, 0x98, 0xbe, 0x40, 0x49, 0xa2, 0x3e,
  0x4c, 0xd4, 0xe4, 0x3e, 0x58, 0xd6, 0x08, 0xbe, 0xa4, 0xaa, 0x5e, 0xbe,
  0x38, 0x41, 0x59, 0xbe, 0x9a, 0x30, 0xe9, 0xbe, 0x9c, 0xb7, 0x42, 0xbe,
  0x0a, 0x23, 0xa9, 0x3e, 0x00, 0xa5, 0xc4, 0x3c, 0x40, 0xd6, 0x5e, 0xbe,
  0x40, 0xa4, 0xdd, 0x3e, 0xa4, 0x9f, 0xa0, 0xbe, 0x60, 0x1b, 0x01, 0xbe,
  0x48, 0xac, 0xdc, 0x3e, 0x34, 0xa6, 0xc3, 0xbe, 0xf9, 0xf8, 0xce, 0xbe,
  0x31, 0x23, 0xe8, 0x3d, 0x18, 0xbd, 0xb3, 0xbe, 0x60, 0x8f, 0x9f, 0xbd,
  0x3f, 0x97, 0x46, 0x3c, 0x14, 0xd0, 0xb9, 0x3e, 0xff, 0x4b, 0x3d, 0xbe,
  0x4f, 0xb0, 0x75, 0x3e, 0xc8, 0x6f, 0x7d, 0x3d, 0x00, 0xfd, 0xfc, 0xbe,
  0x18, 0xee, 0x3e, 0x3e, 0x20, 0x40, 0xe8, 0xbd, 0x84, 0x81, 0xc0, 0xbe,
  0xc0, 0x60, 0x80, 0xbc, 0xb0, 0x84, 0x9f, 0x3e, 0xa0, 0x0f, 0x62, 0x3d,
  0x24, 0x80, 0xba, 0xbe, 0x1c, 0x10, 0x9d, 0x3e, 0x38, 0x01, 0x95, 0xbe,
  0x80, 0x39, 0x7a, 0xbc, 0xa0, 0x01, 0x73, 0x3d, 0x80, 0x81, 0xeb, 0xbc,
  0x6c, 0xce, 0xc2, 0x3e, 0x1c, 0x6c, 0xe1, 0xbe, 0x20, 0x2b, 0xb1, 0xbe,
  0x68, 0x4f, 0x6e, 0xbe, 0x8c, 0x88, 0xf0, 0xbe, 0xc0, 0x92, 0x1c, 0x3e,
  0x4c, 0x44, 0xa2, 0xbe, 0xb0, 0x5f, 0x8f, 0x3d, 0xf0, 0xb4, 0x1d, 0x3e,
  0xac, 0x07, 0x89, 0xbe, 0x00, 0x63, 0x2c, 0x3d, 0x10, 0xf2, 0x8c, 0xbd,
  0x60, 0x9b, 0x2e, 0x3d, 0xac, 0xe5, 0x91, 0x3e, 0xb8, 0x47, 0x11, 0xbe,
  0x60, 0x78, 0xdd, 0xbd, 0xc0, 0xfa, 0xd7, 0x3e, 0x04, 0x2d, 0xb2, 0xbe,
  0x80, 0x8c, 0x2b, 0xbe, 0xd0, 0x95, 0x9d, 0x3e, 0xc4, 0x6c, 0xe9, 0x3e,
  0x00, 0x8b, 0x0f, 0x3c, 0xa0, 0x0d, 0x93, 0x3d, 0x1c, 0x42, 0xae, 0x3e,
  0x50, 0xb6, 0x0c, 0x3e, 0xe0, 0x8b, 0x0a, 0x3d, 0x9e, 0xb3, 0x1b, 0x3f,
  0x69, 0xb5, 0x0e, 0xbf, 0x00, 0xb5, 0x02, 0xbc, 0xe0, 0xaf, 0x04, 0xbe,
  0x0f, 0xb0, 0x81, 0x3e, 0x88, 0x91, 0x64, 0x3e, 0x06, 0x6c, 0x53, 0xbf,
  0xe5, 0xc2, 0x69, 0x3e, 0x3c, 0x35, 0xff, 0xbe, 0xb0, 0x2a, 0x4b, 0x3e,
  0x68, 0x10, 0x91, 0x3e, 0x14, 0x41, 0xd4, 0xbe, 0x6c, 0xce, 0x94, 0x3e,
  0xc0, 0x4c, 0xb4, 0xbd, 0x50, 0xf0, 0x77, 0xbe, 0x10, 0x02, 0xd0, 0x3d,
  0x04, 0x81, 0xea, 0xbe, 0x20, 0xc4, 0xa9, 0xbe, 0x28, 0x78, 0x61, 0x3e,
  0xd8, 0xbf, 0xab, 0x3e, 0x78, 0x52, 0xad, 0x3e, 0xf0, 0x0c, 0xc7, 0xbe,
  0x50, 0x48, 0xe8, 0x3e, 0xe8, 0x4f, 0xb5, 0xbe, 0xb0, 0x32, 0x9d, 0x3d,
  0x10, 0x50, 0xc1, 0xbd, 0xdc, 0xc4, 0xe1, 0x3e, 0xf4, 0x15, 0xbd, 0xbe,
  0xcc, 0x6c, 0xc3, 0x3e, 0x35, 0x29, 0xd5, 0xbb, 0xe0, 0xb5, 0xed, 0x3d,
  0xb0, 0x25, 0xab, 0x3d, 0xa3, 0x0a, 0xb6, 0x3e, 0xec, 0x3c, 0x0f, 0x3f,
  0x04, 0x7e, 0xd3, 0x3e, 0xb0, 0x2d, 0x4e, 0x3e, 0xc6, 0x1f, 0x80, 0x3d,
  0x90, 0x18, 0xec, 0xbe, 0xed, 0x66, 0xbc, 0xbe, 0x60, 0x8f, 0x10, 0x3f,
  0x20, 0xac, 0x05, 0xbf, 0x30, 0xcd, 0x88, 0xbe, 0xd8, 0xee, 0xb4, 0x3e,
  0x98, 0x6c, 0xf6, 0xbe, 0xa8, 0x43, 0x86, 0xbe, 0xb0, 0x9a, 0xd1, 0x3e,
  0x78, 0x4c, 0x95, 0xbe, 0xd8, 0xf5, 0x3e, 0x3e, 0xf5, 0x14, 0xc8, 0x3e,
  0xa4, 0x6f, 0xa1, 0xbd, 0x30, 0x15, 0xc0, 0xbd, 0xa4, 0x7e, 0x9c, 0x3e,
  0xb5, 0x3e, 0x45, 0xbe, 0x10, 0xbc, 0x87, 0xbe, 0x99, 0x4c, 0xcd, 0x3e,
  0xd7, 0x95, 0xdc, 0xbe, 0xdc, 0xe2, 0xc6, 0x3e, 0xa8, 0x45, 0xbe, 0xbe,
  0xa8, 0x74, 0x13, 0x3e, 0x20, 0xd3, 0xae, 0xbd, 0xde, 0xfa, 0xff, 0xff,
  0x10, 0x00, 0x00, 0x00, 0x0b, 0x00, 0x00, 0x00, 0x14, 0x00, 0x00, 0x00,
  0x38, 0x00, 0x00, 0x00, 0x02, 0x00, 0x00, 0x00, 0x08, 0x00, 0x00, 0x00,
  0x10, 0x00, 0x00, 0x00, 0x23, 0x00, 0x00, 0x00, 0x73, 0x65, 0x71, 0x75,
  0x65, 0x6e, 0x74, 0x69, 0x61, 0x6c, 0x2f, 0x64, 0x65, 0x6e, 0x73, 0x65,
  0x5f, 0x31, 0x2f, 0x54, 0x65, 0x6e, 0x73, 0x6f, 0x72, 0x64, 0x6f, 0x74,
  0x2f, 0x4d, 0x61, 0x74, 0x4d, 0x75, 0x6c, 0x00, 0xe8, 0xfa, 0xff, 0xff,
  0xce, 0xfb, 0xff, 0xff, 0x04, 0x00, 0x00, 0x00, 0x00, 0x01, 0x00, 0x00,
  0x71, 0x77, 0xcd, 0xbe, 0x92, 0x29, 0xd0, 0xbe, 0x5c, 0x7c, 0xbc, 0x3e,
  0xe4, 0xab, 0x4c, 0x3e, 0x67, 0xb0, 0x68, 0x3d, 0xb0, 0x42, 0x84, 0xbe,
  0x3b, 0x36, 0xeb, 0x3d, 0xcf, 0x93, 0x04, 0x3d, 0x00, 0xad, 0x83, 0xbb,
  0x89, 0xe5, 0xba, 0xbe, 0x67, 0xef, 0x09, 0xbf, 0x73, 0xd4, 0x03, 0xbf,
  0xc6, 0x7c, 0x07, 0xbf, 0x1c, 0xd4, 0x1f, 0xbe, 0xe0, 0x0d, 0x05, 0x3f,
  0x60, 0xb1, 0xc7, 0xbc, 0x54, 0x90, 0x62, 0xbd, 0x25, 0xbd, 0x01, 0xbf,
  0x1e, 0x53, 0xe6, 0x3e, 0x2a, 0x1f, 0x06, 0x3d, 0xf4, 0x36, 0x4f, 0x3e,
  0x4e, 0xa2, 0x4c, 0x3c, 0x47, 0x0d, 0xac, 0x3d, 0x37, 0xf6, 0x68, 0xbe,
  0x0a, 0x55, 0xcf, 0xbe, 0x08, 0x58, 0x08, 0xbf, 0x88, 0x9f, 0xea, 0xbd,
  0xd4, 0xcc, 0x09, 0x3f, 0x8a, 0x65, 0x38, 0xbe, 0x16, 0x8e, 0x15, 0xbe,
  0x5c, 0xd7, 0x7c, 0x3e, 0x6c, 0x6c, 0x2b, 0xbe, 0xfb, 0x3a, 0x3c, 0x3d,
  0xbd, 0xcb, 0x35, 0x3e, 0xd2, 0x65, 0xdf, 0xbe, 0x2a, 0x9b, 0x4f, 0x3e,
  0x80, 0x0a, 0xd6, 0xbc, 0x30, 0xf7, 0x9c, 0xbe, 0x80, 0xa0, 0xe1, 0x3b,
  0x96, 0x86, 0x03, 0xbf, 0xcf, 0xaf, 0xde, 0xbe, 0x9c, 0x7f, 0x01, 0x3f,
  0xe1, 0x77, 0xf0, 0xbe, 0x98, 0x6b, 0xde, 0x3e, 0x5f, 0x88, 0x7e, 0x3e,
  0xc1, 0x0a, 0x5b, 0x3e, 0x73, 0x14, 0xcc, 0xbe, 0x92, 0xf0, 0x30, 0x3e,
  0x4f, 0xd7, 0x2d, 0x3e, 0x1e, 0xc4, 0x61, 0x3e, 0xbf, 0x4a, 0xbe, 0xbe,
  0x04, 0x42, 0x03, 0x3d, 0x70, 0x46, 0x72, 0x3d, 0x10, 0xea, 0xd5, 0x3d,
  0x38, 0x5e, 0xd0, 0xbd, 0xe6, 0xd3, 0x52, 0xbe, 0x8e, 0x08, 0xa4, 0xbe,
  0x91, 0xc8, 0xe5, 0xbe, 0xbc, 0x94, 0x8b, 0xbd, 0xe8, 0x0a, 0x69, 0x3e,
  0x9a, 0xbf, 0xaa, 0xbe, 0x64, 0x39, 0x97, 0x3e, 0x32, 0x16, 0xbb, 0xbe,
  0xd8, 0xe1, 0x66, 0x3e, 0x36, 0xfc, 0xff, 0xff, 0x10, 0x00, 0x00, 0x00,
  0x0a, 0x00, 0x00, 0x00, 0x14, 0x00, 0x00, 0x00, 0x38, 0x00, 0x00, 0x00,
  0x02, 0x00, 0x00, 0x00, 0x10, 0x00, 0x00, 0x00, 0x04, 0x00, 0x00, 0x00,
  0x21, 0x00, 0x00, 0x00, 0x73, 0x65, 0x71, 0x75, 0x65, 0x6e, 0x74, 0x69,
  0x61, 0x6c, 0x2f, 0x64, 0x65, 0x6e, 0x73, 0x65, 0x2f, 0x54, 0x65, 0x6e,
  0x73, 0x6f, 0x72, 0x64, 0x6f, 0x74, 0x2f, 0x4d, 0x61, 0x74, 0x4d, 0x75,
  0x6c, 0x00, 0x00, 0x00, 0x40, 0xfc, 0xff, 0xff, 0x26, 0xfd, 0xff, 0xff,
  0x04, 0x00, 0x00, 0x00, 0x0c, 0x00, 0x00, 0x00, 0x01, 0x00, 0x00, 0x00,
  0x04, 0x00, 0x00, 0x00, 0x08, 0x00, 0x00, 0x00, 0x0e, 0xfe, 0xff, 0xff,
  0x00, 0x00, 0x00, 0x02, 0x10, 0x00, 0x00, 0x00, 0x09, 0x00, 0x00, 0x00,
  0x10, 0x00, 0x00, 0x00, 0x38, 0x00, 0x00, 0x00, 0x01, 0x00, 0x00, 0x00,
  0x03, 0x00, 0x00, 0x00, 0x25, 0x00, 0x00, 0x00, 0x73, 0x65, 0x71, 0x75,
  0x65, 0x6e, 0x74, 0x69, 0x61, 0x6c, 0x2f, 0x64, 0x65, 0x6e, 0x73, 0x65,
  0x5f, 0x31, 0x2f, 0x54, 0x65, 0x6e, 0x73, 0x6f, 0x72, 0x64, 0x6f, 0x74,
  0x2f, 0x63, 0x6f, 0x6e, 0x63, 0x61, 0x74, 0x5f, 0x31, 0x00, 0x00, 0x00,
  0xa8, 0xfc, 0xff, 0xff, 0x8e, 0xfd, 0xff, 0xff, 0x04, 0x00, 0x00, 0x00,
  0x08, 0x00, 0x00, 0x00, 0x04, 0x00, 0x00, 0x00, 0x10, 0x00, 0x00, 0x00,
  0x72, 0xfe, 0xff, 0xff, 0x00, 0x00, 0x00, 0x02, 0x10, 0x00, 0x00, 0x00,
  0x08, 0x00, 0x00, 0x00, 0x10, 0x00, 0x00, 0x00, 0x34, 0x00, 0x00, 0x00,
  0x01, 0x00, 0x00, 0x00, 0x02, 0x00, 0x00, 0x00, 0x22, 0x00, 0x00, 0x00,
  0x73, 0x65, 0x71, 0x75, 0x65, 0x6e, 0x74, 0x69, 0x61, 0x6c, 0x2f, 0x64,
  0x65, 0x6e, 0x73, 0x65, 0x5f, 0x31, 0x2f, 0x54, 0x65, 0x6e, 0x73, 0x6f,
  0x72, 0x64, 0x6f, 0x74, 0x2f, 0x73, 0x74, 0x61, 0x63, 0x6b, 0x00, 0x00,
  0x08, 0xfd, 0xff, 0xff, 0xee, 0xfd, 0xff, 0xff, 0x04, 0x00, 0x00, 0x00,
  0x0c, 0x00, 0x00, 0x00, 0x01, 0x00, 0x00, 0x00, 0x04, 0x00, 0x00, 0x00,
  0x10, 0x00, 0x00, 0x00, 0xd6, 0xfe, 0xff, 0xff, 0x00, 0x00, 0x00, 0x02,
  0x10, 0x00, 0x00, 0x00, 0x07, 0x00, 0x00, 0x00, 0x10, 0x00, 0x00, 0x00,
  0x34, 0x00, 0x00, 0x00, 0x01, 0x00, 0x00, 0x00, 0x03, 0x00, 0x00, 0x00,
  0x23, 0x00, 0x00, 0x00, 0x73, 0x65, 0x71, 0x75, 0x65, 0x6e, 0x74, 0x69,
  0x61, 0x6c, 0x2f, 0x64, 0x65, 0x6e, 0x73, 0x65, 0x2f, 0x54, 0x65, 0x6e,
  0x73, 0x6f, 0x72, 0x64, 0x6f, 0x74, 0x2f, 0x63, 0x6f, 0x6e, 0x63, 0x61,
  0x74, 0x5f, 0x31, 0x00, 0x6c, 0xfd, 0xff, 0xff, 0x52, 0xfe, 0xff, 0xff,
  0x04, 0x00, 0x00, 0x00, 0x08, 0x00, 0x00, 0x00, 0x04, 0x00, 0x00, 0x00,
  0x04, 0x00, 0x00, 0x00, 0x36, 0xff, 0xff, 0xff, 0x00, 0x00, 0x00, 0x02,
  0x10, 0x00, 0x00, 0x00, 0x06, 0x00, 0x00, 0x00, 0x10, 0x00, 0x00, 0x00,
  0x34, 0x00, 0x00, 0x00, 0x01, 0x00, 0x00, 0x00, 0x02, 0x00, 0x00, 0x00,
  0x20, 0x00, 0x00, 0x00, 0x73, 0x65, 0x71, 0x75, 0x65, 0x6e, 0x74, 0x69,
  0x61, 0x6c, 0x2f, 0x64, 0x65, 0x6e, 0x73, 0x65, 0x2f, 0x54, 0x65, 0x6e,
  0x73, 0x6f, 0x72, 0x64, 0x6f, 0x74, 0x2f, 0x73, 0x74, 0x61, 0x63, 0x6b,
  0x00, 0x00, 0x00, 0x00, 0xcc, 0xfd, 0xff, 0xff, 0xb2, 0xfe, 0xff, 0xff,
  0x04, 0x00, 0x00, 0x00, 0x0c, 0x00, 0x00, 0x00, 0x4c, 0xc3, 0xaf, 0x3e,
  0x98, 0x95, 0xe6, 0xbd, 0xb5, 0x6e, 0x82, 0x3d, 0x26, 0xfe, 0xff, 0xff,
  0x10, 0x00, 0x00, 0x00, 0x05, 0x00, 0x00, 0x00, 0x10, 0x00, 0x00, 0x00,
  0x3c, 0x00, 0x00, 0x00, 0x01, 0x00, 0x00, 0x00, 0x03, 0x00, 0x00, 0x00,
  0x28, 0x00, 0x00, 0x00, 0x73, 0x65, 0x71, 0x75, 0x65, 0x6e, 0x74, 0x69,
  0x61, 0x6c, 0x2f, 0x79, 0x5f, 0x70, 0x72, 0x65, 0x64, 0x2f, 0x42, 0x69,
  0x61, 0x73, 0x41, 0x64, 0x64, 0x2f, 0x52, 0x65, 0x61, 0x64, 0x56, 0x61,
  0x72, 0x69, 0x61, 0x62, 0x6c, 0x65, 0x4f, 0x70, 0x00, 0x00, 0x00, 0x00,
  0x34, 0xfe, 0xff, 0xff, 0x1a, 0xff, 0xff, 0xff, 0x04, 0x00, 0x00, 0x00,
  0x08, 0x00, 0x00, 0x00, 0xff, 0xff, 0xff, 0xff, 0x20, 0x00, 0x00, 0x00,
  0x00, 0x00, 0x0e, 0x00, 0x18, 0x00, 0x08, 0x00, 0x07, 0x00, 0x0c, 0x00,
  0x10, 0x00, 0x14, 0x00, 0x0e, 0x00, 0x00, 0x00, 0x00, 0x00, 0x00, 0x02,
  0x10, 0x00, 0x00, 0x00, 0x04, 0x00, 0x00, 0x00, 0x10, 0x00, 0x00, 0x00,
  0x2c, 0x00, 0x00, 0x00, 0x01, 0x00, 0x00, 0x00, 0x02, 0x00, 0x00, 0x00,
  0x18, 0x00, 0x00, 0x00, 0x73, 0x65, 0x71, 0x75, 0x65, 0x6e, 0x74, 0x69,
  0x61, 0x6c, 0x2f, 0x66, 0x6c, 0x61, 0x74, 0x74, 0x65, 0x6e, 0x2f, 0x43,
  0x6f, 0x6e, 0x73, 0x74, 0x00, 0x00, 0x00, 0x00, 0x9c, 0xfe, 0xff, 0xff,
  0x82, 0xff, 0xff, 0xff, 0x04, 0x00, 0x00, 0x00, 0x20, 0x00, 0x00, 0x00,
  0x61, 0x44, 0x9d, 0xbd, 0xce, 0x82, 0x6d, 0xbe, 0x00, 0x00, 0x00, 0x00,
  0x00, 0x00, 0x00, 0x00, 0x5b, 0x41, 0x0c, 0xbe, 0x00, 0x00, 0x00, 0x00,
  0x03, 0x48, 0x8c, 0x3d, 0x20, 0x3a, 0x44, 0x3c, 0x0a, 0xff, 0xff, 0xff,
  0x10, 0x00, 0x00, 0x00, 0x03, 0x00, 0x00, 0x00, 0x10, 0x00, 0x00, 0x00,
  0x3c, 0x00, 0x00, 0x00, 0x01, 0x00, 0x00, 0x00, 0x08, 0x00, 0x00, 0x00,
  0x29, 0x00, 0x00, 0x00, 0x73, 0x65, 0x71, 0x75, 0x65, 0x6e, 0x74, 0x69,
  0x61, 0x6c, 0x2f, 0x64, 0x65, 0x6e, 0x73, 0x65, 0x5f, 0x31, 0x2f, 0x42,
  0x69, 0x61, 0x73, 0x41, 0x64, 0x64, 0x2f, 0x52, 0x65, 0x61, 0x64, 0x56,
  0x61, 0x72, 0x69, 0x61, 0x62, 0x6c, 0x65, 0x4f, 0x70, 0x00, 0x00, 0x00,
  0x60, 0xff, 0xff, 0xff, 0x00, 0x00, 0x06, 0x00, 0x08, 0x00, 0x04, 0x00,
  0x06, 0x00, 0x00, 0x00, 0x04, 0x00, 0x00, 0x00, 0x40, 0x00, 0x00, 0x00,
  0x00, 0x00, 0x00, 0x00, 0xb9, 0xd8, 0x0d, 0xbd, 0x00, 0x00, 0x00, 0x00,
  0x00, 0x00, 0x00, 0x00, 0x80, 0xc8, 0x06, 0xbf, 0x0d, 0xd0, 0x74, 0x3d,
  0x00, 0x00, 0x00, 0x00, 0x00, 0x00, 0x00, 0x00, 0xea, 0xea, 0xea, 0xbd,
  0x00, 0x00, 0x00, 0x00, 0xce, 0x49, 0x3c, 0x3e, 0xa8, 0x45, 0x4e, 0xbf,
  0x2a, 0xaf, 0xfa, 0x3d, 0x00, 0x00, 0x00, 0x00, 0x00, 0x00, 0x00, 0x00,
  0x00, 0x00, 0x00, 0x00, 0xae, 0xff, 0xff, 0xff, 0x10, 0x00, 0x00, 0x00,
  0x02, 0x00, 0x00, 0x00, 0x10, 0x00, 0x00, 0x00, 0x3c, 0x00, 0x00, 0x00,
  0x01, 0x00, 0x00, 0x00, 0x10, 0x00, 0x00, 0x00, 0x27, 0x00, 0x00, 0x00,
  0x73, 0x65, 0x71, 0x75, 0x65, 0x6e, 0x74, 0x69, 0x61, 0x6c, 0x2f, 0x64,
  0x65, 0x6e, 0x73, 0x65, 0x2f, 0x42, 0x69, 0x61, 0x73, 0x41, 0x64, 0x64,
  0x2f, 0x52, 0x65, 0x61, 0x64, 0x56, 0x61, 0x72, 0x69, 0x61, 0x62, 0x6c,
  0x65, 0x4f, 0x70, 0x00, 0x04, 0x00, 0x06, 0x00, 0x04, 0x00, 0x00, 0x00,
  0x00, 0x00, 0x0e, 0x00, 0x14, 0x00, 0x04, 0x00, 0x00, 0x00, 0x08, 0x00,
  0x0c, 0x00, 0x10, 0x00, 0x0e, 0x00, 0x00, 0x00, 0x10, 0x00, 0x00, 0x00,
  0x01, 0x00, 0x00, 0x00, 0x14, 0x00, 0x00, 0x00, 0x1c, 0x00, 0x00, 0x00,
  0x02, 0x00, 0x00, 0x00, 0x01, 0x00, 0x00, 0x00, 0x10, 0x00, 0x00, 0x00,
  0x07, 0x00, 0x00, 0x00, 0x78, 0x5f, 0x69, 0x6e, 0x70, 0x75, 0x74, 0x00,
  0xfc, 0xff, 0xff, 0xff, 0x04, 0x00, 0x04, 0x00, 0x04, 0x00, 0x00, 0x00
};
unsigned int trained_tflite_len = 4296;
